0.0,-0.028,0.042,0.042,-0.065,-0.026,-0.07,-0.073,-0.071,0.042,0.072,0.03,0.037,0.044,-0.156,-0.009,0.026,0.051,-0.066,0.041,-0.096,-0.077,-0.141,0.038,-0.152,-0.056,0.092,-0.059,-0.011,0.047,-0.034,-0.137,-0.035,-0.018,-0.044,-0.05,-0.037,0.058,-0.038,0.062,0.093,-0.184,0.008,0.037,0.009,0.054,-0.077,-0.056,-0.273,-0.055,-0.057,-0.022,0.059,0.031,0.052,0.039,0.011,-0.068,-0.064,-0.087,0.001,0.045,0.023,0.022,0.008,0.043,0.016,-0.01,0.039,0.01,0.081,-0.082,0.033,0.05,0.028,0.036,-0.096,0.013,0.04,-0.01,0.046,-0.006,-0.089,-0.142,0.05,-0.011,0.035,-0.079,-0.023,0.015,0.046,0.043,-0.112,-0.047,-0.016,-0.038,-0.133,0.045,0.061,-0.078,-0.029,0.027,0.104,-0.075,-0.089,-0.141,-0.146,-0.061,0.013,-0.05,0.057,0.093,0.064,-0.028,0.02,-0.144,-0.025,0.058,0.0,-0.036,0.055,0.007,0.013,-0.097,0.06,0.067,-0.251,-0.106,0.05,0.04,-0.065,-0.13,-0.104,0.039,0.043,-0.062,0.049,-0.004,-0.075,-0.328,0.013,-0.163,-0.051,-0.007,0.011,-0.054,0.074,-0.065,-0.105,-0.002,-0.024,-0.035,0.013,-0.025,-0.193,-0.089,-0.063,-0.014,-0.026,-0.089,-0.03,-0.166,0.021,0.034,-0.054,0.062,-0.084,0.043,0.018,-0.074,0.01,-0.041,-0.043,-0.036,0.016,-0.006,0.022,0.089,-0.024,-0.001,0.062,0.083,-0.116,-0.148,0.008,0.047,-0.064,-0.016,-0.012,0.076,-0.108,-0.003,0.057,-0.011,-0.11,-0.024,-0.153,0.037,0.032,-0.149,-0.08,0.045,0.065,-0.097,0.065,-0.064,0.042,0.033,0.017,-0.112,0.019,-0.092,0.076,0.002,-0.007,-0.082,-0.006,-0.096,-0.034,0.176,0.067,0.021,-0.045,0.022,-0.077,-0.098,-0.094,-0.038,-0.05,0.032,-0.018,-0.006,-0.045,0.009,0.062,0.065,0.032,-0.103,0.054,-0.037,0.015,0.005,-0.078,-0.159,-0.002,-0.024,0.052,-0.013,0.026,0.034,-0.014,0.182,0.037,-0.054,0.071,-0.042,-0.108,0.052,0.015,-0.006,-0.041,-0.049,0.046,-0.098,0.041,0.023,0.06,-0.006,0.089,-0.162,-0.032,0.009,0.068,0.034,0.043,-0.052,-0.098,0.054,0.015,-0.002,0.008,0.027,0.045,0.048,0.056,-0.057,0.05,0.04,-0.024,-0.023,0.011,-0.118,0.085,0.03,0.05,-0.017,-0.022,0.006,-0.097,-0.0,0.048,-0.128,-0.093,0.011,-0.027,-0.008,0.084,-0.107,0.099,-0.053,-0.002,-0.077,-0.025,0.08,-0.05,0.014,-0.037,-0.02,-0.094,0.043,-0.106,-0.029,-0.13,-0.098,0.053,-0.019,0.082,0.126,0.059,0.006,0.068,0.037,0.067,0.019,-0.068,0.044,-0.017,0.029,-0.076,-0.146,0.036,0.014,0.065,0.093,0.093,-0.052,-0.058,0.107,0.028,0.026,0.045,-0.063,-0.031,-0.045,0.037,-0.03,-0.127,0.034,-0.008,-0.063,-0.036,-0.123,-0.11,-0.144,0.063,-0.006,0.029,0.011,-0.034,0.067,-0.084,0.041,0.004,-0.114,0.074,-0.097,-0.045,0.005,-0.034,0.061,-0.209,-0.014,-0.18,0.013,0.042,-0.047,-0.023,0.097,0.023,0.007,0.065,-0.081,-0.123,-0.014,0.077,0.086,-0.082,-0.021,-0.055,-0.004,-0.022,-0.099,-0.069,-0.029,-0.054,0.046,-0.074,-0.063,-0.109,-0.018,-0.015,-0.054,-0.011,0.017,0.024,0.063,0.026,-0.074,0.086,-0.139,-0.038,-0.038,-0.0,-0.015,0.046,-0.07,0.036,-0.246,-0.099,0.071,-0.239,-0.033,0.102,-0.02,-0.028,0.044,-0.057,0.009,-0.015,-0.073,0.068,-0.025,-0.136,-0.004,-0.154,-0.002,0.063,-0.07,-0.137,0.048,0.053,-0.285,0.046,0.065,-0.153,-0.047,-0.074,0.043,-0.098,0.068,0.085,-0.022,-0.032,0.094,0.034,-0.076,-0.066,-0.078,-0.021,0.001,-0.07,0.066,0.059,-0.057,-0.062,0.055,-0.057,-0.073,-0.037,0.044,-0.148,0.048,0.058,0.036,0.037,0.035,0.013,-0.035,0.03,0.041,0.036,0.023,0.099,-0.129,-0.126,-0.087,-0.102,-0.003,-0.152,-0.117
-0.031,0.038,-0.099,-0.087,0.02,-0.026,0.076,0.095,0.012,-0.082,-0.112,0.007,-0.003,-0.087,0.063,-0.067,-0.069,-0.108,0.075,-0.111,0.044,-0.034,0.023,0.084,0.061,-0.091,-0.072,-0.084,-0.073,-0.093,-0.084,0.055,0.068,-0.054,-0.13,-0.02,0.076,-0.072,-0.03,-0.091,0.21,0.041,0.075,-0.135,0.06,-0.089,-0.11,0.004,0.346,0.031,-0.018,0.052,0.012,0.091,0.016,-0.028,-0.071,-0.026,-0.048,0.042,-0.066,-0.056,0.036,-0.002,-0.093,-0.024,-0.099,-0.002,-0.012,0.144,0.032,0.021,-0.075,0.037,-0.099,0.025,0.028,-0.007,-0.067,0.046,-0.003,-0.114,0.032,-0.07,0.01,-0.125,-0.019,-0.087,0.042,0.021,-0.161,0.035,-0.036,-0.001,0.002,0.03,0.016,-0.137,-0.074,0.049,0.154,0.027,0.028,-0.014,0.059,0.08,0.094,-0.013,-0.008,-0.111,-0.092,0.047,0.003,-0.076,0.169,0.078,0.03,-0.081,0.029,-0.013,-0.139,0.077,-0.024,0.03,0.06,-0.09,-0.107,-0.045,0.063,-0.127,-0.092,0.041,0.02,0.023,-0.105,0.045,-0.09,-0.136,0.052,0.082,0.052,0.019,-0.039,0.022,0.061,0.064,0.024,0.098,-0.049,-0.062,-0.027,-0.003,-0.052,0.06,0.092,0.048,-0.098,0.005,0.002,0.269,-0.114,-0.088,-0.096,-0.094,0.072,-0.137,0.054,-0.108,0.082,0.051,-0.019,0.025,-0.041,0.047,0.102,0.281,-0.059,-0.042,0.017,-0.079,-0.103,0.062,0.058,0.076,-0.066,-0.108,-0.037,-0.073,0.11,-0.138,0.017,0.027,0.065,-0.106,0.072,-0.064,0.081,-0.048,0.028,0.042,-0.155,-0.065,-0.123,0.188,0.059,0.043,-0.076,-0.095,0.135,0.031,-0.0,-0.075,0.021,0.019,-0.028,0.002,0.067,-0.034,-0.05,-0.089,-0.034,-0.05,0.036,0.045,-0.015,0.003,0.016,-0.03,0.019,0.073,0.099,-0.108,0.032,-0.038,-0.082,-0.064,-0.125,0.057,-0.122,0.054,0.032,0.053,0.022,0.076,-0.081,0.149,-0.081,-0.066,-0.103,-0.031,-0.118,-0.216,-0.051,0.002,0.109,-0.124,-0.071,0.024,0.048,-0.011,-0.06,0.079,-0.068,0.071,-0.054,0.016,0.159,0.044,0.04,0.15,-0.071,-0.06,-0.047,-0.128,-0.058,-0.03,0.032,-0.07,-0.092,-0.079,0.014,0.051,0.003,0.023,0.055,-0.033,0.048,-0.081,-0.13,-0.085,0.086,-0.036,0.022,-0.123,0.013,-0.044,-0.119,-0.064,-0.082,-0.064,-0.118,0.038,-0.136,0.028,0.068,-0.083,-0.138,0.041,0.073,-0.053,-0.123,-0.109,0.023,-0.138,-0.048,0.047,0.029,0.008,0.053,0.063,0.06,-0.024,0.028,0.025,0.014,-0.13,-0.081,0.012,0.149,-0.018,-0.17,-0.102,-0.129,-0.121,0.011,0.241,-0.028,-0.063,0.017,0.066,0.079,0.029,0.033,0.044,-0.052,-0.023,0.047,-0.039,-0.004,0.064,-0.01,-0.074,-0.066,-0.039,0.012,-0.118,-0.124,-0.016,0.045,0.057,-0.157,-0.064,0.048,0.052,-0.084,-0.057,0.012,-0.114,-0.087,0.018,0.043,0.032,0.003,-0.036,-0.157,0.063,0.037,-0.099,-0.078,-0.137,0.027,0.04,0.053,-0.088,-0.045,0.032,-0.051,0.068,0.071,-0.066,-0.053,0.044,0.104,0.054,-0.046,-0.055,-0.074,0.09,0.075,-0.075,-0.005,-0.2,-0.127,-0.079,0.03,-0.058,-0.042,-0.026,0.009,-0.011,0.027,-0.055,-0.064,0.205,-0.138,-0.08,-0.055,0.062,-0.087,-0.119,-0.103,-0.042,0.037,-0.112,0.033,-0.193,0.057,0.206,-0.157,0.136,-0.127,-0.127,0.036,-0.094,0.058,-0.054,-0.068,0.035,-0.098,-0.06,0.037,0.125,0.036,0.026,0.041,-0.118,0.058,-0.027,0.072,-0.005,-0.009,0.03,-0.095,-0.006,0.01,0.063,0.011,-0.132,0.157,-0.04,0.015,0.063,-0.041,0.063,0.015,0.098,0.056,-0.027,0.047,0.01,0.094,-0.048,-0.117,-0.089,0.051,-0.001,-0.094,0.058,0.008,-0.026,0.039,-0.016,-0.003,-0.06,-0.114,0.006,-0.068,0.115,0.168,-0.093,-0.102,0.043,-0.04,0.045,-0.132,-0.076,-0.043,0.044,0.062,0.058
0.095,0.02,0.032,0.058,0.027,-0.049,0.004,0.143,0.002,-0.026,-0.024,0.044,0.038,-0.018,0.069,0.051,0.006,-0.006,-0.028,-0.048,-0.033,0.04,-0.011,-0.006,0.062,0.027,0.104,-0.047,0.023,-0.092,-0.019,0.028,-0.007,0.053,0.025,-0.027,0.027,0.027,0.041,-0.045,-0.025,-0.035,0.044,0.013,0.036,-0.125,-0.147,0.01,-0.311,-0.121,0.123,0.092,0.032,-0.07,-0.229,0.036,0.025,0.025,0.006,-0.079,-0.017,0.086,-0.092,-0.017,0.03,-0.03,0.029,0.001,-0.026,0.055,0.062,-0.038,-0.054,-0.082,0.063,-0.029,0.039,-0.003,0.048,0.036,0.056,0.016,-0.134,-0.026,0.013,-0.029,-0.011,-0.035,-0.035,0.049,-0.032,0.056,0.055,-0.101,0.04,-0.012,-0.008,-0.023,0.038,-0.031,0.073,-0.25,-0.002,-0.02,0.025,0.188,-0.001,0.053,-0.03,0.112,0.032,0.088,-0.007,-0.044,-0.043,0.001,-0.017,-0.016,-0.081,0.074,-0.053,-0.065,0.041,0.066,0.067,0.028,0.103,0.098,-0.037,0.042,0.037,-0.039,0.059,-0.079,0.088,0.042,0.089,0.04,0.035,-0.042,0.036,0.02,-0.058,0.065,0.093,0.128,-0.071,-0.01,-0.015,-0.033,-0.049,-0.04,-0.013,0.087,-0.04,-0.111,-0.07,0.101,-0.025,-0.054,-0.073,-0.111,-0.027,0.032,0.038,0.007,0.042,0.216,-0.155,-0.01,0.033,-0.309,0.191,-0.007,0.035,-0.217,-0.086,0.047,-0.039,0.031,-0.029,0.056,0.054,0.065,-0.056,-0.07,-0.07,-0.0,0.086,-0.004,-0.239,0.08,0.012,0.003,0.013,-0.08,0.093,-0.107,0.001,0.072,-0.001,-0.036,-0.008,-0.161,0.085,0.082,-0.051,-0.06,-0.154,-0.065,-0.078,-0.035,0.06,0.017,-0.019,0.049,0.103,0.085,0.083,0.086,-0.37,0.073,0.018,0.052,-0.055,-0.047,-0.107,0.062,-0.095,0.025,-0.115,0.047,0.048,0.036,-0.002,-0.083,-0.093,0.059,-0.035,0.046,0.023,0.047,0.005,0.038,0.052,0.141,-0.062,0.078,0.007,0.01,-0.045,-0.104,-0.049,-0.015,0.067,-0.013,0.075,0.01,0.028,-0.039,0.032,0.021,0.005,0.107,0.058,-0.071,0.043,-0.09,0.087,-0.012,-0.137,-0.03,-0.004,-0.062,0.057,0.066,-0.047,-0.008,0.019,0.029,0.044,0.032,0.056,-0.078,0.038,0.032,0.045,-0.015,0.088,-0.05,0.09,-0.161,0.036,-0.06,0.01,0.037,0.151,-0.149,0.008,0.045,-0.039,0.001,-0.098,0.082,0.001,0.06,0.016,0.053,-0.128,0.079,0.017,-0.049,-0.077,0.047,0.061,0.094,-0.354,-0.022,-0.094,-0.02,-0.16,0.038,0.004,-0.044,0.05,-0.03,0.144,0.028,0.081,-0.019,0.02,0.043,0.047,-0.047,-0.08,-0.139,0.028,0.033,-0.049,0.019,0.072,0.079,0.086,0.09,-0.129,-0.101,0.053,0.048,0.051,0.099,0.034,0.02,0.096,-0.049,-0.331,0.023,-0.013,0.028,0.061,0.004,-0.092,0.08,-0.018,0.057,0.012,0.014,-0.003,-0.078,-0.096,0.045,-0.015,0.051,-0.048,-0.293,-0.015,-0.042,0.134,0.039,-0.051,0.056,0.071,-0.045,0.04,0.023,0.013,0.07,0.059,0.089,0.078,0.014,0.076,-0.015,-0.052,0.027,-0.035,-0.048,-0.115,-0.01,0.083,-0.065,0.055,-0.052,-0.038,-0.013,-0.077,-0.293,0.069,0.027,-0.095,-0.031,0.079,0.024,0.049,-0.297,0.035,-0.042,-0.13,-0.086,0.076,-0.044,-0.075,0.043,-0.072,0.093,-0.174,0.006,-0.018,0.049,-0.016,-0.069,-0.042,0.016,0.091,-0.025,0.054,0.003,0.049,0.092,0.059,0.027,-0.054,0.107,-0.061,-0.147,0.001,-0.062,0.063,-0.018,0.078,-0.094,-0.002,0.311,-0.058,0.035,0.104,0.085,-0.115,-0.081,0.304,0.041,0.125,-0.205,0.047,-0.138,-0.031,-0.125,0.046,0.047,-0.179,-0.009,-0.026,0.009,-0.058,0.016,0.107,0.002,0.02,-0.078,0.085,0.077,0.074,-0.178,0.096,0.037,-0.024,0.009,-0.047,-0.314,0.052,-0.103,0.038,-0.047,0.093,-0.014,-0.007,0.091,-0.023,0.076,0.017,-0.008
-0.033,-0.143,-0.067,0.018,0.055,0.004,-0.105,-0.118,0.039,-0.062,-0.016,-0.042,-0.033,0.064,-0.034,-0.074,0.068,0.042,0.078,0.032,-0.072,0.02,0.031,-0.008,0.079,-0.096,-0.114,-0.097,0.012,-0.026,0.041,0.076,0.038,-0.037,0.026,0.047,-0.007,0.044,0.074,-0.072,-0.01,0.032,0.027,-0.023,0.051,-0.043,0.126,0.015,-0.234,0.004,-0.104,-0.152,0.016,0.034,-0.311,0.02,-0.033,0.127,0.087,0.058,0.025,-0.076,-0.105,0.013,-0.108,-0.086,-0.048,0.079,0.008,-0.068,-0.039,0.078,0.018,0.038,-0.031,0.043,-0.101,0.039,-0.004,-0.169,-0.066,-0.141,-0.06,0.01,-0.014,0.03,0.035,-0.02,0.056,0.036,0.049,0.03,0.119,-0.007,0.062,-0.102,-0.088,0.06,-0.029,0.03,0.024,0.048,-0.05,-0.068,0.032,-0.105,0.058,-0.171,0.089,-0.057,0.067,-0.046,-0.159,-0.001,0.136,0.013,-0.044,-0.074,0.069,-0.081,-0.067,0.083,-0.028,0.021,0.055,0.023,-0.045,0.088,-0.027,-0.038,0.053,-0.087,0.008,0.07,0.073,0.035,0.057,-0.032,0.055,0.129,-0.004,-0.093,-0.0,0.071,-0.02,0.074,-0.014,-0.154,0.044,-0.015,-0.004,-0.01,0.034,0.005,-0.089,-0.002,-0.017,-0.071,-0.04,-0.279,0.041,0.075,0.027,-0.044,0.014,-0.052,0.065,0.059,-0.227,0.043,0.057,0.039,0.007,0.078,0.115,-0.086,0.043,-0.034,0.041,0.075,0.007,0.036,0.094,0.129,-0.056,-0.005,-0.002,-0.066,-0.187,-0.011,-0.224,0.012,0.072,0.045,0.001,0.046,0.023,-0.061,-0.037,0.033,0.008,0.037,-0.027,-0.038,-0.097,-0.139,-0.036,-0.105,-0.001,0.093,0.036,-0.04,0.017,-0.033,-0.027,0.052,-0.133,-0.053,0.039,-0.167,0.026,0.031,0.051,-0.071,0.004,0.058,0.086,-0.049,0.226,-0.08,-0.062,-0.027,0.089,0.012,-0.077,-0.097,-0.039,0.025,-0.044,0.043,-0.02,-0.088,0.04,0.054,0.072,-0.02,-0.05,-0.083,-0.083,0.076,0.055,-0.144,0.076,-0.005,0.027,0.001,-0.024,0.04,0.029,-0.034,-0.014,0.063,0.05,-0.251,0.066,-0.086,0.027,0.05,-0.122,-0.141,-0.086,0.02,0.088,-0.004,-0.008,-0.048,0.021,-0.06,0.077,-0.046,0.038,0.036,-0.023,0.009,-0.068,-0.109,-0.147,-0.034,0.016,0.042,0.028,0.041,0.069,0.033,-0.001,-0.069,0.088,-0.083,-0.098,0.051,-0.077,0.075,0.085,0.02,-0.168,0.084,-0.098,0.046,0.129,0.076,0.024,0.063,-0.026,0.08,-0.066,-0.077,0.079,-0.025,-0.163,0.019,0.036,0.043,0.017,0.068,0.035,-0.0,-0.043,-0.222,0.078,-0.114,0.04,-0.048,0.025,0.039,-0.098,-0.057,0.008,-0.082,-0.028,0.084,-0.065,0.002,-0.031,-0.097,-0.14,0.029,0.058,-0.052,-0.03,-0.094,0.009,0.037,-0.052,-0.106,-0.048,-0.172,0.01,-0.058,0.019,0.06,-0.047,0.086,0.021,0.019,-0.044,0.019,0.024,-0.098,0.005,-0.136,0.038,-0.051,-0.014,-0.078,0.036,0.076,-0.174,0.064,0.017,-0.055,0.019,-0.004,-0.258,-0.087,-0.068,0.013,0.037,0.039,0.05,-0.019,0.055,0.056,0.035,0.019,-0.097,-0.005,-0.025,0.085,-0.097,0.068,0.056,0.143,-0.04,0.072,0.013,-0.078,-0.053,0.084,-0.047,0.014,0.083,0.004,-0.053,-0.295,0.005,0.008,0.047,0.018,-0.008,-0.039,-0.025,0.084,0.027,0.076,0.159,0.072,-0.173,0.245,-0.033,-0.077,0.096,-0.099,-0.058,0.046,-0.141,-0.019,-0.034,0.076,-0.018,-0.009,0.047,-0.073,0.047,-0.032,-0.129,0.085,-0.004,0.053,-0.034,-0.014,-0.021,-0.068,-0.077,-0.008,0.037,-0.141,-0.073,0.036,-0.161,0.039,-0.11,0.005,0.061,-0.016,0.025,-0.173,0.034,0.003,-0.145,0.043,0.063,-0.093,-0.014,0.053,-0.14,0.032,-0.15,0.05,0.027,0.091,0.056,0.078,0.063,-0.05,0.02,-0.012,-0.016,-0.175,-0.045,-0.083,0.05,-0.074,0.082,0.044,0.05,-0.011,-0.07,0.044,-0.002,0.02
0.007,0.077,0.014,0.027,0.084,0.004,-0.096,0.031,-0.021,0.07,0.031,0.002,0.05,-0.107,0.046,0.034,-0.073,-0.024,-0.066,0.013,0.037,-0.069,0.07,0.015,-0.142,0.047,0.062,0.067,-0.079,0.041,0.057,0.011,-0.1,0.032,-0.015,-0.058,-0.114,-0.021,-0.108,-0.038,-0.142,-0.035,-0.133,0.017,-0.09,-0.076,-0.108,-0.057,0.059,-0.07,0.06,0.116,-0.068,0.117,0.013,-0.115,0.078,0.079,-0.033,0.113,-0.114,0.031,0.056,-0.089,0.037,0.137,0.072,-0.076,0.043,0.113,-0.172,-0.013,-0.002,-0.073,0.092,-0.146,0.06,0.048,-0.135,0.025,0.091,0.015,-0.08,0.029,-0.161,0.025,0.018,0.005,0.083,-0.135,-0.094,-0.102,0.019,0.054,0.086,0.031,0.02,-0.056,-0.081,-0.073,-0.205,0.006,-0.121,0.142,0.011,-0.128,0.046,0.08,-0.124,-0.081,-0.042,-0.142,0.058,0.045,0.115,0.04,-0.022,0.03,-0.012,0.029,0.006,-0.121,-0.078,-0.065,-0.117,-0.052,-0.249,-0.231,-0.116,-0.032,-0.04,0.118,0.031,0.077,-0.081,-0.066,-0.157,0.029,-0.108,0.026,0.021,0.061,0.015,-0.167,0.01,-0.184,0.029,0.019,0.057,0.029,0.026,-0.031,0.022,0.009,0.078,0.017,0.016,-0.013,0.017,0.049,0.063,0.05,-0.071,0.028,-0.097,0.004,0.016,-0.111,0.061,0.073,-0.029,-0.089,-0.231,-0.136,0.166,0.184,0.011,0.04,-0.078,-0.174,-0.092,-0.229,-0.302,-0.128,0.046,-0.001,-0.014,0.001,0.012,-0.111,-0.081,-0.103,-0.243,-0.005,-0.045,0.024,-0.033,-0.093,-0.211,-0.134,0.046,0.048,0.025,0.013,-0.126,-0.041,0.01,0.045,0.036,0.079,-0.343,0.036,-0.157,0.003,0.014,0.072,0.073,0.082,-0.071,-0.016,0.147,0.033,0.049,-0.001,-0.066,0.045,0.022,0.073,-0.165,0.021,0.009,-0.059,-0.039,-0.166,0.062,0.054,0.028,0.02,0.015,-0.106,0.007,0.054,-0.0,-0.017,0.052,0.096,-0.027,0.072,0.041,-0.061,-0.058,-0.037,-0.153,0.004,0.115,-0.337,-0.035,-0.113,-0.088,0.034,0.014,0.048,-0.067,0.138,0.009,0.063,0.04,-0.173,0.089,-0.002,-0.206,-0.014,-0.065,0.011,0.027,-0.146,-0.054,-0.077,-0.003,0.006,-0.078,-0.183,-0.002,0.099,0.04,0.046,0.093,0.018,-0.008,-0.097,0.126,0.063,-0.121,-0.023,-0.031,-0.06,-0.262,0.123,0.039,0.004,0.063,-0.002,-0.107,-0.072,0.028,-0.137,-0.012,-0.033,0.037,0.044,-0.016,-0.006,0.021,-0.102,0.051,-0.048,0.131,-0.062,0.086,-0.109,0.113,-0.028,-0.048,-0.012,0.001,-0.047,0.07,0.059,-0.004,0.094,-0.094,-0.155,0.009,0.046,0.065,0.018,-0.005,0.017,0.033,0.017,-0.117,-0.057,-0.097,-0.011,0.001,0.022,-0.136,-0.015,0.073,0.057,0.076,-0.004,0.019,0.164,-0.098,0.035,0.054,-0.032,-0.221,-0.01,-0.078,-0.085,0.013,-0.072,-0.011,-0.048,-0.11,0.015,0.015,-0.08,-0.051,-0.08,0.032,-0.085,-0.111,-0.127,0.007,-0.167,0.077,-0.016,-0.105,-0.083,0.139,0.085,0.017,-0.14,0.032,0.042,-0.099,-0.022,-0.146,-0.071,0.096,-0.019,0.015,-0.13,-0.311,0.061,-0.057,-0.155,-0.073,-0.046,0.008,-0.027,0.049,-0.005,0.046,0.05,0.026,0.035,-0.124,-0.029,0.048,-0.007,0.039,0.038,0.076,0.104,-0.168,0.064,-0.013,0.015,0.062,-0.17,-0.107,0.007,0.06,0.114,0.039,0.015,0.061,0.002,0.045,-0.03,0.067,0.023,-0.058,-0.106,0.036,0.032,-0.232,0.202,0.048,0.059,0.057,-0.107,-0.181,0.035,-0.149,-0.051,0.026,-0.086,0.069,-0.063,0.008,-0.158,0.054,0.01,-0.001,-0.065,0.097,-0.046,-0.07,-0.164,-0.057,0.16,0.022,-0.003,0.059,-0.013,-0.066,-0.031,0.036,-0.044,0.05,-0.074,0.064,0.049,0.091,0.005,-0.086,-0.06,0.009,0.011,-0.018,-0.002,0.049,-0.062,-0.208,0.024,0.028,-0.055,-0.148,0.036,-0.04,0.077,0.063,-0.214,0.053,0.021
-0.037,-0.087,-0.044,-0.042,-0.151,0.032,0.057,-0.036,-0.11,0.022,0.031,-0.07,-0.03,0.011,0.038,0.05,-0.015,0.005,0.049,-0.001,0.02,0.046,0.042,0.049,0.029,0.047,-0.058,0.042,-0.039,0.038,-0.038,0.005,0.042,0.003,-0.053,-0.02,0.05,0.041,0.049,0.06,0.019,0.053,-0.127,0.044,-0.077,-0.024,0.147,-0.056,0.067,0.083,-0.019,-0.14,-0.081,-0.072,0.117,0.01,0.003,-0.137,0.139,-0.017,0.029,-0.077,-0.003,-0.005,0.026,-0.092,-0.043,-0.014,-0.122,-0.202,0.023,0.045,0.011,0.003,-0.008,0.023,-0.018,0.052,0.027,-0.015,-0.109,-0.074,0.105,-0.17,0.04,-0.061,-0.011,-0.019,0.03,-0.077,-0.008,0.027,-0.161,-0.129,-0.109,0.011,0.025,-0.043,0.001,-0.004,0.081,-0.191,-0.093,-0.005,-0.01,0.008,0.042,-0.151,-0.036,0.031,0.001,-0.041,0.079,0.039,-0.085,-0.011,-0.006,-0.012,0.06,-0.165,-0.057,-0.023,-0.054,-0.043,-0.075,0.061,0.084,0.079,0.047,-0.052,0.018,-0.267,-0.009,0.04,-0.032,0.033,0.079,0.003,0.077,0.126,-0.055,0.09,0.026,0.003,-0.068,-0.081,-0.015,-0.176,0.066,-0.031,-0.017,0.017,-0.134,0.022,0.088,-0.008,-0.006,-0.008,-0.003,0.126,0.021,0.101,-0.038,0.017,-0.018,0.036,0.047,0.187,-0.048,-0.007,0.061,0.165,0.243,0.066,-0.192,-0.016,-0.066,-0.073,0.034,0.074,0.066,0.003,-0.074,-0.048,-0.039,-0.043,0.042,0.047,-0.162,-0.005,0.179,-0.046,0.087,-0.117,-0.1,0.05,0.167,0.09,0.053,0.056,0.048,0.024,0.059,0.15,-0.277,-0.002,0.057,0.085,0.047,-0.002,0.143,0.038,0.029,0.009,0.066,-0.062,-0.307,0.037,-0.154,-0.36,0.074,-0.046,-0.184,-0.037,-0.007,0.024,-0.057,-0.067,-0.013,-0.125,0.037,-0.072,-0.077,0.072,0.024,0.075,0.024,-0.036,0.035,-0.114,0.011,-0.191,-0.137,0.09,0.011,0.148,-0.02,-0.168,-0.042,0.051,0.022,-0.074,-0.013,-0.051,-0.158,0.142,0.005,-0.025,0.015,0.029,0.048,-0.001,0.015,-0.111,0.066,0.012,-0.067,0.138,0.051,-0.2,0.087,0.016,0.066,0.029,-0.036,0.177,0.071,0.041,0.037,-0.078,-0.02,0.033,0.013,-0.214,-0.025,-0.11,0.067,-0.065,-0.013,0.07,-0.404,0.057,0.008,0.043,0.039,0.069,0.096,0.057,0.074,-0.048,0.06,0.041,0.04,-0.047,-0.11,-0.099,-0.013,0.055,-0.208,0.029,0.055,0.136,-0.064,-0.044,-0.177,-0.17,0.012,-0.044,-0.003,0.044,-0.114,-0.02,-0.01,0.056,-0.141,0.015,0.003,-0.147,-0.191,0.053,0.023,0.047,-0.142,-0.017,-0.022,0.044,-0.047,-0.014,-0.041,0.08,0.056,-0.098,-0.173,-0.145,-0.054,-0.047,0.005,-0.204,-0.143,0.139,-0.089,-0.019,-0.034,0.084,0.151,-0.048,0.091,0.053,0.068,-0.168,0.254,0.074,-0.056,0.009,-0.017,0.057,0.023,0.054,0.041,0.078,0.024,-0.021,-0.026,0.163,-0.006,0.093,-0.043,0.061,-0.07,-0.024,0.085,0.017,0.119,0.05,-0.049,-0.069,-0.089,-0.061,-0.012,-0.001,0.067,0.007,-0.14,0.031,0.049,0.084,0.289,-0.102,0.032,-0.009,0.032,-0.039,0.018,-0.013,-0.062,0.094,-0.014,-0.178,0.029,0.003,0.003,0.035,-0.04,0.047,-0.009,-0.019,0.008,0.052,-0.008,0.024,0.048,0.051,-0.103,0.086,0.119,0.017,-0.116,-0.259,0.09,-0.141,0.073,-0.049,0.053,0.077,0.108,0.046,-0.001,0.061,-0.105,0.034,-0.063,-0.386,0.019,0.062,0.089,0.035,-0.046,-0.025,0.063,0.087,-0.054,-0.016,0.073,0.041,-0.003,0.141,0.099,0.036,-0.113,-0.014,-0.184,-0.117,-0.085,0.043,0.053,0.089,0.015,-0.079,0.065,0.028,0.087,0.042,0.029,0.062,-0.03,-0.005,0.113,-0.16,-0.082,0.002,0.014,0.065,-0.123,-0.076,0.03,0.014,-0.052,0.129,0.177,0.068,-0.034,0.021,0.168,0.029,-0.226,0.035,0.092,-0.018,-0.02,-0.012
0.038,-0.028,-0.003,-0.112,0.023,-0.044,0.092,0.085,-0.131,-0.006,-0.036,0.028,-0.014,-0.032,-0.111,0.085,-0.056,0.03,-0.174,-0.082,0.03,0.061,-0.114,-0.07,-0.007,0.004,-0.06,0.054,-0.084,-0.108,-0.132,-0.173,0.023,0.019,0.066,0.065,0.079,0.035,-0.009,0.021,-0.002,-0.007,-0.083,-0.06,-0.042,0.035,-0.041,-0.127,-0.067,0.042,0.036,-0.092,-0.14,-0.03,0.165,-0.041,-0.033,-0.109,-0.094,-0.135,0.049,0.07,0.028,0.023,0.064,-0.023,0.047,-0.043,-0.038,-0.083,0.049,-0.059,0.077,-0.089,0.065,0.031,0.027,0.102,0.023,0.104,-0.008,0.054,0.102,0.017,0.015,0.051,0.035,0.014,-0.07,-0.031,-0.092,0.02,-0.088,-0.11,-0.096,0.091,0.046,-0.022,-0.208,-0.013,-0.064,-0.187,0.021,-0.141,-0.039,-0.102,-0.073,0.065,0.022,-0.178,-0.061,-0.024,-0.035,-0.008,0.082,0.031,-0.006,0.061,0.051,0.127,0.073,-0.122,0.053,0.009,-0.079,0.012,0.059,-0.043,-0.034,0.046,-0.031,-0.155,0.037,0.038,-0.072,0.023,-0.117,0.091,-0.108,-0.253,0.052,-0.185,-0.095,-0.119,0.036,-0.09,-0.112,0.116,-0.031,-0.008,0.024,0.015,0.009,0.056,-0.076,0.005,-0.17,0.036,-0.036,-0.077,0.014,-0.05,-0.002,0.006,0.03,0.036,-0.019,-0.002,0.074,-0.104,-0.171,0.073,-0.061,-0.095,-0.029,0.113,-0.06,0.035,-0.134,-0.121,0.022,-0.077,-0.164,-0.138,0.084,-0.108,-0.071,0.077,0.101,0.044,0.111,-0.029,-0.102,0.072,-0.015,0.075,-0.145,0.101,0.012,-0.108,-0.081,0.042,0.067,0.046,0.031,0.125,-0.054,0.089,0.107,-0.128,0.07,-0.136,0.041,-0.021,-0.034,-0.063,-0.148,0.024,-0.146,0.038,-0.013,-0.03,-0.027,-0.053,-0.034,-0.114,0.004,0.06,-0.162,-0.167,0.104,0.039,0.02,0.014,-0.157,0.049,-0.005,0.072,0.025,-0.099,0.032,-0.024,-0.098,0.053,-0.062,-0.175,0.031,0.011,-0.05,-0.044,-0.13,-0.041,0.026,0.051,-0.051,0.053,-0.081,0.004,0.033,-0.055,0.074,0.093,-0.058,0.026,0.026,-0.033,0.047,0.013,-0.043,0.116,0.294,-0.043,-0.067,-0.047,0.031,0.012,-0.154,0.038,0.074,-0.108,0.056,-0.108,0.049,0.074,-0.024,-0.024,-0.091,0.018,0.068,-0.04,-0.142,-0.113,-0.01,-0.052,0.001,0.035,-0.373,-0.005,0.079,0.043,0.079,-0.135,-0.18,0.109,0.085,0.026,0.029,-0.136,0.116,0.002,-0.119,-0.087,0.002,-0.149,0.04,-0.038,0.007,-0.116,0.001,-0.008,-0.049,0.055,-0.07,-0.148,-0.166,-0.047,0.056,0.061,-0.082,0.027,-0.114,-0.144,-0.005,-0.124,-0.045,0.036,-0.013,0.033,-0.029,-0.15,0.03,-0.133,-0.087,0.101,0.061,-0.126,-0.128,-0.069,0.009,-0.117,-0.164,-0.069,0.043,-0.032,-0.04,0.084,-0.175,-0.042,0.024,-0.094,0.058,-0.083,0.004,-0.15,0.036,0.017,0.045,0.091,-0.083,0.021,0.036,0.049,-0.06,0.118,-0.071,0.009,-0.03,0.018,-0.009,-0.081,-0.079,-0.056,-0.274,0.037,-0.092,-0.042,-0.003,0.001,-0.065,-0.021,0.002,0.012,0.053,0.06,-0.027,0.043,0.018,-0.154,0.074,-0.062,-0.132,-0.008,-0.029,-0.099,-0.165,0.059,0.031,-0.063,0.063,0.009,0.081,-0.054,0.065,0.051,-0.05,-0.038,0.03,-0.09,-0.049,-0.136,0.065,0.052,0.066,-0.299,0.037,-0.167,0.006,-0.271,-0.003,-0.056,-0.171,0.045,0.004,-0.086,-0.085,-0.015,0.038,0.064,-0.001,0.044,-0.038,-0.163,-0.11,0.039,0.012,-0.144,-0.06,0.054,-0.163,0.059,0.034,-0.19,-0.095,0.037,0.002,-0.084,-0.067,-0.017,-0.052,0.024,-0.162,0.019,-0.086,-0.009,-0.045,0.088,-0.046,0.031,0.088,-0.037,-0.015,0.056,0.057,0.004,0.076,0.063,0.052,-0.107,0.053,0.014,-0.031,0.074,-0.092,0.005,-0.095,0.006,0.028,0.059,0.062,-0.176,-0.014,0.084,-0.156,0.032,0.165,0.06,-0.12,-0.095,0.05,0.057
-0.145,0.019,-0.002,-0.057,0.047,0.015,-0.03,0.084,0.044,-0.06,0.001,-0.073,0.086,0.045,-0.001,-0.056,-0.021,-0.094,-0.006,-0.019,0.065,0.08,0.019,0.031,0.081,-0.098,0.095,-0.045,-0.001,0.067,0.054,0.023,-0.059,-0.06,0.037,-0.1,-0.093,-0.055,-0.068,0.005,0.144,-0.004,0.065,-0.023,-0.096,0.067,-0.132,0.032,0.046,-0.22,-0.129,0.09,0.066,-0.09,-0.071,0.08,-0.075,0.028,-0.109,0.015,-0.121,-0.072,0.04,-0.121,-0.032,-0.074,0.02,-0.007,0.03,0.06,-0.027,0.118,-0.098,0.048,0.066,-0.089,-0.096,0.069,-0.042,-0.099,-0.05,0.047,-0.146,0.053,-0.082,0.058,-0.043,-0.001,-0.034,0.076,0.009,-0.083,0.028,0.058,-0.016,-0.105,-0.1,0.071,0.058,-0.085,0.043,0.018,0.038,-0.003,0.0,0.077,0.033,0.057,-0.007,0.075,-0.092,0.09,0.105,-0.059,-0.033,0.033,0.005,-0.02,0.019,0.082,0.024,0.015,-0.114,0.134,0.077,-0.103,-0.125,0.16,-0.065,-0.046,0.016,0.105,-0.077,0.037,0.029,-0.082,-0.024,-0.099,0.007,-0.289,-0.092,0.071,0.013,-0.005,-0.075,0.063,0.085,0.105,-0.023,0.054,-0.005,-0.017,0.031,-0.143,0.005,-0.083,0.05,-0.007,-0.029,0.117,-0.052,-0.038,0.06,-0.0,-0.023,-0.072,-0.088,-0.092,0.037,-0.113,0.049,0.097,0.012,0.027,-0.042,0.114,0.021,0.088,0.011,-0.031,-0.043,-0.033,0.157,0.167,-0.045,0.037,-0.114,-0.108,0.112,-0.078,0.011,0.083,-0.053,0.039,0.002,0.08,0.117,-0.027,-0.022,0.045,0.038,-0.011,-0.101,0.104,0.079,0.059,-0.03,-0.053,0.005,0.023,0.026,0.043,0.043,-0.038,0.109,-0.09,-0.076,-0.111,0.103,0.06,-0.092,-0.009,0.015,-0.012,-0.028,-0.0,-0.076,-0.071,-0.006,0.048,-0.004,0.047,0.081,0.015,0.083,-0.046,0.035,0.149,-0.013,-0.025,0.032,-0.077,-0.049,0.059,-0.078,-0.121,0.014,0.064,0.071,0.073,0.06,-0.151,0.062,-0.034,-0.028,0.023,0.029,0.014,-0.12,-0.011,-0.102,-0.032,0.068,0.093,-0.105,0.104,-0.073,-0.112,0.067,0.109,0.049,-0.105,-0.095,0.029,0.003,0.129,0.011,-0.057,-0.177,0.005,-0.087,0.017,-0.153,0.007,0.017,0.032,0.165,-0.02,-0.147,-0.087,0.086,-0.108,0.024,0.016,-0.131,-0.079,0.005,0.009,-0.088,-0.065,-0.078,-0.073,-0.095,0.125,0.024,0.014,0.041,0.069,0.064,-0.028,0.019,-0.112,-0.022,0.092,0.051,0.004,-0.072,0.011,-0.037,-0.023,0.068,-0.061,-0.064,0.041,0.07,-0.014,-0.012,-0.077,0.015,-0.088,0.044,0.053,0.046,0.063,-0.058,0.14,0.016,-0.045,0.002,-0.103,-0.085,0.006,0.066,0.051,0.034,-0.09,0.012,-0.01,0.05,-0.041,0.078,-0.072,-0.244,0.148,0.075,-0.006,0.056,0.092,-0.076,0.084,0.175,0.096,-0.078,0.093,0.018,-0.151,-0.097,-0.0,-0.032,-0.141,-0.104,-0.125,0.068,-0.012,-0.014,-0.033,0.064,0.04,0.027,0.041,0.143,0.0,-0.06,0.07,0.068,-0.003,-0.043,0.005,-0.05,-0.112,-0.073,-0.09,-0.002,-0.111,0.129,0.087,0.093,0.097,-0.021,0.035,0.02,0.031,-0.024,0.016,0.002,-0.193,-0.035,0.001,-0.083,0.016,0.055,-0.106,-0.116,0.096,-0.015,0.038,-0.008,-0.041,0.017,0.02,-0.071,0.095,0.052,0.078,-0.11,0.078,0.114,-0.014,-0.029,0.012,-0.061,-0.128,-0.089,0.011,-0.044,-0.102,-0.001,0.124,0.025,-0.076,-0.028,-0.07,-0.016,0.119,-0.111,0.027,0.054,-0.059,0.027,-0.141,-0.114,0.142,0.015,-0.172,-0.158,0.039,-0.027,0.021,0.03,-0.059,0.094,0.069,-0.056,-0.091,0.048,0.02,-0.094,0.038,0.05,-0.129,0.052,-0.085,0.083,0.042,0.026,-0.112,-0.013,-0.023,0.065,0.105,0.046,-0.121,0.063,0.057,0.022,0.015,-0.022,0.174,-0.004,0.079,-0.019,-0.101,-0.094,0.001,0.07,-0.103,0.088,0.002,-0.054,-0.016
-0.15,0.092,-0.064,0.071,-0.004,-0.027,0.031,-0.102,-0.023,0.082,0.027,0.049,-0.202,0.024,0.008,0.036,0.064,-0.046,-0.063,-0.029,0.046,0.02,0.072,-0.029,-0.046,0.049,0.016,0.085,0.01,0.049,-0.001,0.048,0.075,0.063,0.026,0.07,0.057,0.045,0.042,0.049,-0.221,0.023,-0.048,0.024,0.073,-0.05,-0.138,0.031,-0.222,-0.01,-0.05,-0.213,-0.045,0.017,-0.087,-0.067,0.075,0.016,-0.067,-0.292,0.031,-0.048,0.023,0.03,0.053,-0.13,0.068,0.066,0.027,-0.081,0.032,-0.091,0.034,-0.028,-0.2,0.055,0.048,-0.011,0.054,0.069,0.014,-0.002,0.006,-0.044,0.036,-0.02,-0.014,0.069,-0.011,0.003,0.055,0.044,0.011,-0.065,0.066,-0.033,0.054,-0.035,-0.103,0.078,-0.151,-0.048,-0.037,-0.126,0.06,0.048,-0.005,-0.034,-0.075,-0.072,0.064,-0.052,-0.107,0.055,-0.147,-0.032,-0.023,-0.019,-0.026,-0.055,0.015,-0.083,0.056,0.006,0.016,0.025,0.057,-0.108,0.045,0.029,0.02,0.029,0.02,-0.079,-0.093,0.035,0.029,-0.11,-0.076,-0.118,0.044,-0.04,0.045,0.057,-0.168,-0.032,-0.083,-0.212,0.021,0.04,0.028,0.026,0.013,-0.072,0.018,0.06,0.045,-0.099,-0.035,-0.307,0.052,-0.002,0.0,0.043,0.039,0.034,0.022,-0.2,-0.085,0.063,-0.017,0.025,-0.228,-0.051,-0.011,-0.152,-0.009,-0.143,0.034,0.017,0.02,-0.034,-0.095,-0.168,0.01,0.045,0.011,0.004,0.022,0.029,-0.05,-0.029,-0.047,-0.014,0.025,-0.093,-0.154,0.019,0.038,0.024,0.03,-0.052,0.008,-0.148,0.003,-0.035,-0.016,-0.067,-0.144,-0.032,0.015,0.043,0.037,-0.001,-0.114,0.061,-0.052,-0.056,0.053,0.12,-0.21,-0.027,0.063,-0.004,0.082,0.072,-0.029,0.045,0.027,-0.172,0.029,-0.052,-0.003,0.042,-0.116,0.033,-0.14,0.029,0.062,0.035,0.012,-0.045,0.071,0.001,-0.05,-0.269,0.031,-0.049,0.025,-0.068,-0.021,0.19,-0.077,0.026,-0.141,-0.036,0.017,0.023,0.047,-0.03,0.024,-0.081,-0.087,0.0,-0.119,-0.153,-0.157,-0.136,-0.204,0.004,-0.077,0.073,-0.063,0.077,0.025,-0.177,-0.038,0.055,-0.114,-0.008,-0.017,-0.004,0.037,-0.107,-0.116,-0.079,-0.121,0.014,-0.114,0.044,-0.036,0.031,-0.076,0.053,0.063,-0.033,-0.06,0.045,0.034,0.068,0.054,0.048,-0.072,-0.011,0.058,-0.051,0.086,-0.024,-0.152,-0.005,0.037,-0.075,0.01,-0.042,0.015,-0.016,-0.146,0.044,-0.017,0.049,-0.076,0.023,0.047,0.01,-0.045,0.035,-0.185,0.095,-0.181,0.061,-0.03,0.017,-0.021,0.041,0.007,-0.167,-0.042,0.087,0.035,0.01,0.036,0.059,0.065,0.039,-0.182,0.064,0.013,-0.109,-0.019,-0.126,-0.088,0.022,-0.009,0.134,-0.028,0.064,0.018,-0.13,0.01,0.03,-0.162,-0.083,0.061,-0.032,0.0,0.056,-0.009,0.058,0.006,-0.06,0.066,0.071,0.028,-0.037,-0.039,-0.047,0.044,0.007,0.028,0.015,-0.083,0.052,0.133,-0.205,-0.063,0.028,0.074,-0.232,-0.073,0.052,-0.035,0.05,-0.006,0.033,-0.025,-0.151,-0.061,-0.119,0.026,-0.07,0.026,-0.149,0.014,0.054,0.017,0.074,0.067,0.021,0.009,-0.047,0.008,0.052,0.034,-0.097,0.015,0.005,-0.009,0.067,-0.041,-0.015,0.006,-0.111,-0.01,-0.034,-0.115,-0.138,-0.096,-0.13,0.044,-0.071,0.009,0.012,-0.212,0.049,-0.087,0.069,0.086,-0.138,-0.001,0.025,0.032,-0.024,0.058,-0.147,0.081,0.009,0.021,0.016,0.01,0.018,0.063,-0.018,0.028,-0.06,-0.207,-0.169,0.031,-0.0,-0.274,0.01,-0.17,0.02,0.062,-0.014,0.05,0.07,0.042,-0.036,-0.108,0.027,-0.052,-0.014,-0.024,-0.015,-0.06,0.038,-0.05,-0.02,-0.005,-0.114,0.014,0.07,-0.058,0.002,0.005,0.021,0.056,-0.082,-0.234,-0.117,0.046,-0.008,-0.139,0.067,-0.092,-0.028,0.02,0.008,0.023,-0.022
0.08,-0.089,0.025,0.044,-0.078,-0.018,-0.005,-0.145,0.04,-0.055,0.032,-0.023,-0.028,-0.041,-0.031,-0.12,-0.008,0.007,0.064,0.033,0.02,-0.269,0.04,-0.112,-0.074,-0.027,-0.108,0.057,0.084,-0.024,0.008,-0.064,-0.013,-0.045,0.049,-0.024,-0.034,-0.076,-0.087,-0.005,-0.226,-0.0,0.058,0.017,-0.022,-0.034,0.094,0.05,-0.043,-0.023,-0.002,-0.031,0.064,-0.086,0.109,-0.111,-0.051,-0.003,0.045,0.006,-0.005,-0.125,-0.024,0.015,-0.039,0.113,-0.028,0.027,0.066,0.015,-0.076,-0.104,-0.04,0.06,0.022,0.014,0.077,-0.161,-0.03,0.006,-0.033,-0.014,-0.018,-0.007,-0.033,0.056,-0.013,0.021,-0.06,0.01,-0.026,-0.054,0.032,0.071,-0.103,0.017,0.033,0.053,0.033,0.029,-0.134,0.165,0.064,0.069,-0.058,-0.267,0.011,0.024,0.026,0.02,-0.01,-0.103,-0.168,0.039,-0.119,0.033,0.021,0.074,-0.068,0.034,0.001,0.024,0.009,-0.285,0.065,-0.017,0.273,-0.173,-0.044,-0.051,-0.101,-0.083,-0.026,-0.138,-0.129,0.009,-0.039,0.091,-0.096,0.147,-0.038,0.035,-0.002,0.015,0.094,-0.181,0.062,-0.004,-0.0,0.016,0.006,0.018,0.061,0.039,0.029,0.077,0.043,-0.148,0.035,0.005,0.048,0.045,0.043,0.053,-0.02,0.01,0.028,-0.079,0.06,0.03,-0.048,-0.083,-0.036,-0.058,-0.173,-0.343,0.048,-0.008,0.022,0.078,0.045,0.004,-0.122,-0.269,0.024,0.06,0.109,-0.078,-0.2,-0.042,0.093,-0.248,-0.018,0.061,-0.029,-0.061,-0.082,0.055,0.009,0.039,0.057,-0.113,-0.006,-0.079,0.024,-0.057,0.004,-0.005,0.056,0.013,-0.068,0.045,-0.101,-0.038,-0.106,-0.074,0.065,-0.059,-0.066,0.032,0.152,-0.077,0.039,0.018,0.051,0.006,0.078,0.021,-0.001,0.116,-0.005,-0.029,-0.132,0.035,0.042,-0.081,0.068,-0.263,0.037,0.076,0.025,0.037,0.047,-0.096,0.039,-0.128,-0.038,0.05,-0.011,-0.063,0.032,0.002,0.005,-0.067,0.086,0.017,-0.004,-0.017,-0.066,0.027,-0.08,-0.269,-0.046,-0.144,0.086,-0.005,-0.06,0.049,-0.006,-0.063,-0.158,-0.056,-0.022,0.045,-0.105,-0.138,-0.015,-0.063,-0.152,0.067,0.013,0.007,-0.03,0.069,0.046,0.02,-0.14,0.039,0.015,0.072,-0.074,0.058,-0.053,0.049,-0.033,-0.063,0.095,-0.111,0.025,-0.014,-0.141,0.002,0.08,-0.179,-0.134,0.064,0.006,-0.037,-0.051,-0.091,0.025,0.058,0.028,0.013,0.008,0.088,0.091,0.032,0.055,-0.036,0.041,0.041,0.001,-0.034,0.079,0.04,0.026,0.071,-0.045,-0.039,0.028,0.045,0.047,0.056,0.032,-0.108,-0.049,-0.044,0.053,-0.02,-0.063,0.028,-0.072,-0.266,0.015,0.069,0.053,0.084,0.063,-0.09,0.078,0.018,0.065,-0.259,0.069,-0.015,0.054,0.047,-0.071,-0.045,-0.248,-0.08,0.002,-0.173,-0.082,-0.02,0.03,-0.031,0.057,0.103,0.05,0.0,0.063,-0.001,-0.012,0.002,-0.15,0.04,0.034,-0.085,-0.33,-0.01,0.019,0.058,0.035,0.012,0.029,0.042,-0.108,-0.036,-0.064,-0.07,-0.072,-0.131,-0.097,0.002,-0.02,0.046,-0.096,0.007,-0.092,0.06,0.065,0.046,0.059,0.032,-0.153,0.071,0.015,-0.003,-0.076,-0.012,-0.044,0.058,0.001,0.047,0.025,-0.02,0.016,0.023,0.005,-0.116,0.021,0.039,0.001,0.051,0.006,0.0,0.024,0.077,0.034,-0.004,0.076,-0.0,0.04,-0.053,-0.081,-0.201,0.041,-0.068,0.051,-0.077,-0.007,-0.018,0.012,0.057,-0.022,0.019,0.046,-0.004,-0.012,-0.278,0.033,-0.095,0.071,-0.001,0.07,0.014,-0.095,-0.053,0.139,0.077,0.053,0.148,0.061,-0.32,-0.003,-0.077,0.068,-0.042,-0.117,0.005,-0.148,0.021,-0.127,-0.032,0.043,0.094,-0.222,-0.168,-0.229,-0.012,0.002,0.028,-0.001,0.021,0.019,0.041,-0.136,0.084,0.023,-0.107,0.053,-0.072,0.051,0.002,0.003,-0.101,-0.111,0.033
