0.028
-0.012
0.057
-0.064
0.029
-0.011
0.057
0.024
0.039
0.033
0.035
-0.053
0.043
-0.041
0.029
0.072
-0.085
-0.025
0.033
-0.002
0.07
0.042
0.034
0.087
-0.028
0.027
0.064
0.029
-0.034
0.042
0.008
-0.007
0.035
0.03
-0.027
-0.061
0.041
0.015
-0.026
0.059
0.06
0.044
0.054
0.018
-0.061
-0.0
-0.012
0.003
0.064
0.026
0.031
0.025
0.036
-0.041
0.018
0.031
0.004
-0.063
-0.0
0.058
-0.054
-0.021
0.036
-0.021
0.068
-0.002
-0.01
-0.021
-0.064
0.031
-0.032
0.02
-0.036
0.016
0.056
0.002
0.031
0.052
-0.027
-0.013
-0.031
0.043
0.072
-0.001
-0.036
-0.005
-0.02
0.024
0.064
-0.032
-0.037
0.001
0.007
0.013
-0.007
0.059
0.038
-0.031
0.026
-0.003
0.082
0.004
-0.01
-0.006
-0.012
0.022
0.059
0.046
-0.051
0.061
-0.051
0.022
0.067
-0.035
-0.022
0.052
-0.041
0.013
0.026
0.091
-0.03
0.001
-0.043
-0.004
-0.004
-0.033
0.032
-0.004
0.022
-0.056
-0.011
-0.014
-0.002
0.073
0.017
0.016
0.022
0.04
0.019
0.012
-0.022
0.104
0.038
-0.066
0.046
0.01
0.055
0.025
0.028
0.006
-0.013
-0.032
-0.016
0.021
0.071
-0.031
0.01
0.027
-0.006
0.051
-0.062
0.009
-0.046
0.038
-0.028
0.005
0.059
0.071
0.034
-0.02
0.029
0.014
0.023
0.034
-0.052
0.005
-0.053
0.027
-0.001
-0.044
0.01
-0.022
-0.042
0.018
-0.021
-0.044
-0.003
0.007
0.023
0.014
0.116
0.029
0.032
-0.039
-0.036
0.041
0.085
-0.023
0.018
-0.001
0.016
0.046
0.043
0.085
0.063
0.082
0.023
0.077
0.044
0.028
0.073
0.067
0.027
-0.046
0.061
-0.032
0.015
0.049
-0.077
-0.061
0.042
-0.043
-0.023
-0.027
-0.028
-0.024
-0.015
0.025
-0.009
0.043
0.01
0.004
-0.016
0.011
0.043
0.035
0.016
0.003
0.001
-0.005
-0.041
-0.054
-0.032
0.067
-0.014
0.095
-0.007
0.01
0.004
0.055
0.042
-0.039
0.028
-0.07
-0.055
0.004
0.041
-0.002
-0.002
-0.018
0.054
0.062
0.044
0.013
-0.037
0.108
0.01
0.029
0.043
0.06
-0.016
-0.019
0.012
0.019
-0.036
0.049
0.072
0.004
0.018
0.027
-0.02
0.05
-0.023
-0.046
0.061
0.06
0.105
-0.029
0.022
-0.057
-0.001
-0.002
0.061
-0.003
-0.03
0.075
0.027
0.018
0.069
-0.09
0.008
-0.013
-0.054
-0.021
0.029
-0.036
0.041
0.032
-0.018
0.026
0.019
0.034
0.004
0.008
0.021
0.003
0.022
-0.012
0.032
0.001
0.013
-0.032
-0.037
0.043
0.014
-0.039
0.048
-0.057
0.019
0.047
0.017
0.002
0.022
-0.002
0.02
0.132
-0.012
-0.044
0.046
0.044
0.056
-0.016
-0.07
-0.043
-0.02
-0.026
-0.007
-0.048
0.022
0.06
0.038
-0.03
-0.012
0.081
0.074
0.01
0.054
0.06
0.028
-0.029
0.079
-0.012
-0.011
0.033
-0.002
-0.015
0.011
-0.021
0.049
0.021
-0.023
-0.033
-0.018
0.09
-0.024
0.055
-0.038
-0.052
-0.044
-0.022
-0.003
0.006
0.043
0.074
0.039
-0.029
-0.038
0.019
0.03
-0.003
0.046
-0.031
-0.011
0.072
0.081
0.094
0.13
0.031
0.069
0.031
-0.018
0.043
0.026
-0.06
-0.012
0.022
0.027
-0.068
0.044
-0.044
-0.039
0.038
0.011
0.052
-0.011
-0.038
-0.022
0.019
-0.002
0.04
-0.0
0.069
-0.041
0.019
0.009
0.05
0.034
0.041
0.012
-0.056
-0.009
0.008
0.014
0.03
0.102
-0.005
-0.049
0.031
0.05
0.074
-0.039
0.046
-0.018
0.055
0.047
-0.013
-0.011
0.007
0.083
0.02
-0.027
0.058
0.06
0.023
0.047
0.06
0.046
0.012
-0.021
-0.009
-0.013
0.023
-0.066
0.029
0.007
0.092
0.062
-0.016
0.059
-0.03
0.051
-0.015
0.061
0.01
0.062
-0.055
0.069
0.001
-0.025
0.017
-0.01
-0.009
-0.016
-0.002
-0.007
-0.015
-0.059
0.077
0.088
0.073
-0.071
0.046
0.084
0.018
0.041
0.058
0.046
-0.011
0.036
0.062
